010010
011111
101001
010000
011001
101000
100110
110111
100000
110001
101111
011100
111101
011010
000010
001000
111110
010100
101100
000011
110000
011111
000010
010001
100001
111111
001111
101011
111010
111110
101001
101010
000010
011011
100000
101100
111110
011111
011111
101000
111000
110110
011111
011010
000110
001001
101010
000000
111111
100100
010101
111111
001000
011111
101100
100000
000001
011100
111111
101110
101110
010011
101000
001011
000100
010111
010011
000100
101111
110000
011100
110011
010011
110100
011101
110101
100111
111010
101011
100001
000011
011001
101101
110010
000110
101110
110101
111011
011001
110011
000110
110001
011110
111000
110111
000111
010000
000110
011000
000001
010011
011100
100110
110101
110111
111010
001110
110001
011110
111111
011101
001001
100100
001110
111001
011010
001111
011010
010111
100101
001000
010001
101000
000101
100001
101000
101011
011111
011101
010010
000000
111111
011100
000000
001000
001011
010011
110011
011110
101101
100100
011100
010110
000101
001010
000111
001000
011010
100011
100101
010011
101010
001100
010000
100010
101011
000001
001110
011111
111111
011101
000010
111111
010100
110010
001110
010100
000001
100101
011111
000001
101001
110000
110000
111100
010110
010110
010101
111000
000100
001110
110100
000101
100101
100001
111010
110101
100110
101101
100100
110010
001110
100011
110110
101111
101011
011110
001110
000011
111010
001100
100111
101100
011011
001111
111111
101011
111000
010100
101111
100011
100100
100100
101010
111000
100000
100110
000001
101111
010110
000100
110111
101001
110101
010110
011111
100011
001010
001100
011011
100100
010001
100001
001000
101110
011101
000111
010100
011001
000010
000101
100101
010010
101100
010101
110110
101100
000100
011110
010111
000100
101000
001101
110000
101010
100110
111001
101011
011111
100010
010000
111000
000100
110010
010000
110001
101001
101011
010010
000011
110011
001001
010000
001010
101010
001100
001100
100001
111111
001100
000001
111001
000101
001100
011000
000011
010000
010110
001100
111001
001111
110000
000011
000101
001101
101110
010100
000110
000000
111010
101000
100100
000101
101011
000010
101001
000011
111001
100111
110001
010111
111001
001100
001110
111101
010111
001110
100110
111101
101011
010101
100101
100101
010111
001100
110111
100010
011000
000010
011101
100100
101011
110111
000010
001001
000000
010110
100110
100110
000010
001100
101011
100100
010101
101010
001001
010000
010000
111101
110110
100101
000000
001010
010010
001110
011110
111010
011101
010111
000100
001011
010001
101001
001000
111111
110010
001001
110001
000010
101110
101101
110001
111000
101010
100101
110011
101010
010010
001100
100101
101110
011010
111001
101001
110001
101100
100010
110001
011011
000110
101001
001000
001010
001101
001101
001011
101100
001011
011011
101001
010010
011101
011001
100010
110110
010110
100100
000010
101001
001001
011111
011111
111100
001101
101011
001110
001101
001001
100000
110101
010111
000000
110011
101101
010110
101111
010011
110011
011101
111010
011011
101100
010100
111010
000010
001101
111011
000000
000000
000001
110110
010010
001101
100100
011100
110100
101101
011100
111111
000010
000101
000100
010001
110000
110001
110010
111110
110000
101000
010111
001100
010110
011100
010011
100000
110000
010010
010110
111101
110111
011001
101010
111101
011011
011000
101111
111010
100110
001111
001100
110000
101110
011110
101000
111000
011001
111010
110101
010001
001110
011001
110011
011001
100110
000110
101010
110111
001100
001001
101010
111100
000100
100010
001010
101010
100001
001000
000000
100010
100000
101101
010101
100011
010001
101010
100110
110100
011001
101010
011111
101101
000010
001000
110111
110001
101010
110011
011010
110101
000101
110010
101100
001010
111011
101100
100010
010111
010110
111001
111101
011010
001100
011000
110000
000010
100011
110011
010110
110011
101110
111101
001011
101010
110001
010110
110110
110010
000001
111100
110111
110010
011100
111101
110100
011011
100010
110110
101100
101010
110011
101000
100010
011110
010111
001110
010011
000010
110110
100000
010011
110000
001100
100100
001101
010011
110111
000101
110111
100001
101001
111111
101110
111010
110000
000101
000111
000100
010110
010100
101101
110111
110111
101101
001111
110001
101001
010110
100110
010100
101000
000011
000011
100011
110011
100010
100110
001001
100111
001100
000001
100001
000101
100100
110111
011001
100111
101001
100010
110111
001001
011011
110000
100110
101001
100011
011001
000000
110010
000011
000110
011100
110001
110101
000111
100010
011110
001000
100101
011010
010110
000111
001000
010100
011111
001011
110011
011111
000011
110111
011110
011010
001101
001101
011000
001011
000011
100101
010111
001101
000101
010011
001010
110111
001010
010111
110110
001011
101110
111100
010010
011001
100010
011011
100010
111111
011011
010001
011111
011101
000110
111010
101101
010100
001011
101011
101100
000000
000100
001001
100101
011010
111100
100011
110011
100000
001010
000001
111101
001001
001101
101011
011100
101100
110000
110010
001101
010110
111001
001100
011101
100010
001110
001110
111010
011100
101000
010001
000111
101101
110011
101111
011110
100100
001011
110110
111010
011000
011111
010111
011011
001010
101110
001101
111000
110010
100000
110110
010011
100110
010011
101000
001001
010100
001111
101111
010110
011000
010011
010001
011101
111010
000100
101110
111100
001110
100111
111011
100111
011101
111000
010000
101110
101111
010001
011111
011000
000011
110001
010110
110011
111000
101001
010111
100011
